/**
  ******************************************************************************
  * @file    machine_failures_data_params.c
  * @author  AST Embedded Analytics Research Platform
  * @date    2026-03-04T13:48:17+0100
  * @brief   AI Tool Automatic Code Generator for Embedded NN computing
  ******************************************************************************
  * Copyright (c) 2026 STMicroelectronics.
  * All rights reserved.
  *
  * This software is licensed under terms that can be found in the LICENSE file
  * in the root directory of this software component.
  * If no LICENSE file comes with this software, it is provided AS-IS.
  ******************************************************************************
  */

#include "machine_failures_data_params.h"


/**  Activations Section  ****************************************************/
ai_handle g_machine_failures_activations_table[1 + 2] = {
  AI_HANDLE_PTR(AI_MAGIC_MARKER),
  AI_HANDLE_PTR(NULL),
  AI_HANDLE_PTR(AI_MAGIC_MARKER),
};




/**  Weights Section  ********************************************************/
AI_ALIGNED(32)
const ai_u64 s_machine_failures_weights_array_u64[1939] = {
  0x3e47e9903dd3fa96U, 0xbe6b67303ce0f443U, 0x3ea3320d3ccd26cdU, 0xbe9cd6adbe4397fbU,
  0xbe853719bdeb5d98U, 0x3da7a92b3e42454bU, 0xbe87024cbe7033dbU, 0x3e2a84c1be650a5bU,
  0x3e0addcb3e325cc0U, 0xbddfe1af3cb4a5f4U, 0x3e3454c93e9513e0U, 0xbdfce141bda8243dU,
  0x3dce7e73bde9b044U, 0xbd9e59333e78e317U, 0xbe4062e23e4e6492U, 0xbe5cd3613e1cef60U,
  0xbe6acd91bd28bfdaU, 0x3e083e6a3db58304U, 0xbe0ee9143e344860U, 0x3d5f14d93ce91712U,
  0xbbc2cee8bc31b47fU, 0xbde5229fbdb3b440U, 0xbd24a1d3bd95ef4aU, 0x3e51e7b1be37f902U,
  0x3da287a5bc252b81U, 0xbe3d8619bde37f77U, 0xbdf450173e43410aU, 0x3d9a59aabd577884U,
  0xbd85ad983e708983U, 0x3d16b381be8aaf25U, 0xbbd5a08a3e2e59fbU, 0xbe1e366cbdc8e6efU,
  0x3de8a8db3e167a53U, 0xbd4ec9bd3e890836U, 0xbdacb2f63a61dfceU, 0x3e117fa43df516cfU,
  0xbcd4722bbe86ccc3U, 0x3dc12546be112aeaU, 0x3e8e9e85be1c1d0eU, 0xbe570a87be02a9dbU,
  0x3e468f50be826c68U, 0x3e307a69bdef6d26U, 0xbe3de9bdbd52b3e9U, 0x3e8f7fb53d963839U,
  0xbd654d37bcde48e4U, 0x3deb13c1be80d960U, 0xbe2cdcd5be88c623U, 0xbe2a7f89be00544dU,
  0x3d8cd75b3dc0af08U, 0x3bb953ae3e09b4ccU, 0xbcf25c583e9ebf49U, 0x3e0289063e80c13bU,
  0x3c77012d3df40b80U, 0x3e6bfaa4bdeadaefU, 0x3e5f65843e398520U, 0xbe2b78c7be5fca46U,
  0xbd2d82b63e1953f6U, 0xbe20e2c93dff4961U, 0xbd38751b3dac3d0dU, 0xbe6d512abe32c0f2U,
  0xbda26031bd120653U, 0xbe299ef23c1674d8U, 0x3c2feef0bd1afd79U, 0x3e5823c33d876ee5U,
  0x3e85e5633e961696U, 0x3e836ae13e8c03dfU, 0x3dfe0abbbe0c3eb3U, 0x3ce0fcd8be75abd8U,
  0xbe83df24be944b1dU, 0x3d9183c83dcef617U, 0xbe9eb2cfbe414827U, 0x3e35a00c3caa8187U,
  0xbdff98e93e4db905U, 0x3d99f54fbe863a46U, 0xbe80a0e43e4342b7U, 0xbe7b2f6cbe58435dU,
  0xbe6b670a3e48dc92U, 0xbda1557cbd5f192cU, 0xbdd197233e147fe9U, 0x3bfe250c3dd1dbdcU,
  0xbe48fd9d3d83be38U, 0xbda465d23dabe3e9U, 0x3e791924be154146U, 0xbc02376a3e763699U,
  0x3e51599abc8e0282U, 0x3df467eebded27d2U, 0x3e335e823de71285U, 0x3bc1ce8abd5cad6dU,
  0x3e5914893d8dfe09U, 0x3e23413fbe0ee16dU, 0xbe32b01e3e083e6dU, 0x3e4628093da74c9aU,
  0x3d14ec703d561ceeU, 0xbe3e4740be84f31cU, 0x3c6c516f3e8f3051U, 0xbd39b007bca5ae56U,
  0x3d09fbc9be52e867U, 0xbda0bd59be11afdeU, 0x3d0f5016bc70aaadU, 0x3de2d669bdd09b5fU,
  0xbe2bc83fbe837485U, 0x3e64a51abd48a186U, 0xbe8f3fde3e031501U, 0x3e057ef6be3da1b4U,
  0xbe831f2c3e91f15aU, 0x3e800f91be79b8c8U, 0x3e7468af3e4ba5dbU, 0x3d1ce88f3e38663dU,
  0x3bcb018abb017764U, 0xbe7ccd6abe08f25aU, 0x3ce1d7d13e9ed7e6U, 0x3d35e9723e9447ceU,
  0x3d21ace73e54f903U, 0x3e8f758e3c71f814U, 0x3d9e0443be8dc206U, 0xbe53ad1bbe4ab3a1U,
  0xbdfe7d50bc1b95a6U, 0x3d8227f53cf09c5bU, 0xbe070cfe3ccfa851U, 0x3d4ef7743d7b2a7dU,
  0x3c0221f13c0f2cc2U, 0x3e3e98ffbddb410bU, 0xbddfac343c6fab56U, 0x3e4f46303e49f142U,
  0x3d8b7ec6be844c7cU, 0xbe4dae83be8279ccU, 0x3c5e48e7be91c6f6U, 0x3e19d977bdc116abU,
  0xbc65144e3e2a68ddU, 0xbe3fff9bbe9059dcU, 0x3e67dcc4bda340e7U, 0xbe89045e3e8aff79U,
  0xbdd8977bbe38c6bdU, 0x3d49a9b6be301cc2U, 0x3e81a8be3d795e2dU, 0xbca0f2d6bd1d18f0U,
  0xbe7cd13dbcd39494U, 0xbe0d4dd5bd9b6857U, 0xbe6b0ffa3dd41c1cU, 0xbdb063683ac8fd28U,
  0x3c5fc21d3e7158e7U, 0xbbb31095be7eed15U, 0xbd90d87c3e723f76U, 0x3b3c94c9bde6f54dU,
  0xbc81f407bcad0949U, 0xbd6f07263aecf253U, 0xbcbebb573dd00065U, 0xbdec9f7dbe4130d7U,
  0xbe38a3ca3e8043caU, 0x3d51f4de3dc067ceU, 0x3e41bae9bc608c51U, 0x3e229f563e2f580eU,
  0x3d10b566bdc09b06U, 0xbdfbdef43e6a4353U, 0xbe6df5423e723a62U, 0x3c7b72393e1ff8c2U,
  0xbd8c3bf33d82e5efU, 0x3e483fa93e708b2fU, 0xbd9a45fdbe398b29U, 0x3d3af626bda508acU,
  0xbe965a033e6fd2fdU, 0x3e3884d33e0a0a94U, 0x3e11285b3dc49addU, 0x3e297035be38af88U,
  0xbd87ea0abe610ad1U, 0xbe5c306f3e5ddf3cU, 0xbe8b83143e948f45U, 0x3d97b43abe492ba3U,
  0xbe61086fbe4ba616U, 0xbe4741ecbe0f9c16U, 0xbe92822e3e2210d0U, 0xbd076155be02b198U,
  0x38e2029f3dec0f63U, 0x3e70f8afbcb44f44U, 0x3d9c2de73e81363eU, 0xbe68ce5ebd2fdf1dU,
  0x3e81ec503e90722eU, 0x3ca9b8103e408d20U, 0xbdd728bf3b0397eeU, 0xbd7d7d823e43aba3U,
  0x3e34e8103e2bfdacU, 0x3de96784bca0927bU, 0x3e2c9b07bde4b390U, 0xbdb0603c3d0d3e72U,
  0xbe271a453cb281c8U, 0x3e658f8fbdbb86f0U, 0x3e9aba063e04412fU, 0x3dfc3aefbc86fb83U,
  0x3d06cf9a3c84343bU, 0x3dd7bd403e3283deU, 0xbd2e1a753e9299ceU, 0x3e770c23bdfb2693U,
  0xbe520e79bdf2f6c8U, 0x3e9b14b53dcdf1aaU, 0xbdb78cc53e18b1c4U, 0xbe431631bde2cc29U,
  0xbd4607cdbdd43529U, 0x3e664ac5be19c03fU, 0x3e2c2b9cbe19f956U, 0xbe94b9fe3d905385U,
  0x3daa8399bde3c950U, 0xbd9bb4903db82449U, 0xbe82db96be2b0d78U, 0xbdc4e099bd503fb7U,
  0x3e2e856c3e636e50U, 0x3e0d8a3b3e8bb039U, 0x3dca219fbd1f5affU, 0xbe504845be593170U,
  0xbd02fadabe22ba20U, 0xbe3c6bddbe3f80f2U, 0x3c1f64dfbe7cbd4eU, 0x3e1511f7bdd95812U,
  0x3b004e0f3c71b2a7U, 0xbe745668be3ea889U, 0x3e0cb3a3be26133cU, 0x3cf0388ebe84bf7dU,
  0xbe8a9eaabd398143U, 0xbc709764bda21692U, 0xbe11a062be277dc4U, 0x3e33e7fd3e2b3a7bU,
  0x3e700b4ebc091c6bU, 0x3e93044bbdf5ffb9U, 0xbe0307eb3d32b70dU, 0xbdc4b135be42cee1U,
  0xbd9292a53a13457dU, 0x3df4221b3e058ebbU, 0x3d8ca78f3e3b6479U, 0xbda4d89cbe50da8bU,
  0xbe83669bbe7aa448U, 0x3e4db8d7be5e0d3aU, 0xbe3728db3dc4c940U, 0x3d89c3403e219654U,
  0x39fbd16dbe862cd6U, 0xbe8dc6193e6aa366U, 0x3de8eba33d90c86bU, 0xbe615c2f3e1f3edeU,
  0x3e1167243dea99a6U, 0x3da2ca453e837e3eU, 0x3e206baa3e908afeU, 0xbe1df0bebd29e4b7U,
  0x3e0e3cbcbe8d011aU, 0x3da5cf85be35dce1U, 0xbe2bb74dbc3faa1eU, 0x3ddb35e93e299c1bU,
  0xbd2021b0bcac2c81U, 0x3e4416c9bdb8eeadU, 0x3cc2e2513e1eff95U, 0x3e2faa063d905ca0U,
  0xbced8712be8c5a89U, 0x3e12b563bdc07af1U, 0xbe876198bd3857adU, 0xbe4acf0c3e801fa1U,
  0x3e8d5460be6aa517U, 0x3ea25beebca7b540U, 0xbcc963a43d9d6448U, 0xbdbb0e673e423f4aU,
  0x3c912d393d16ce6eU, 0x3c8c8f353bc6db09U, 0xbbca8cd4bc9c0177U, 0xbc0e0acbbcec5903U,
  0x3ba400e33c0a274bU, 0x3d739d4d3c3f1a8bU, 0x3d181886bcbcf84bU, 0xbc79810fbb81b27dU,
  0x3cee1c843b81bbf8U, 0x3c83b7aabc25a77fU, 0xbd511a6b3cf39745U, 0xbd378168bc5ea479U,
  0x3d408171bc99efceU, 0xbabb10d63d106ceeU, 0xbbbd13d0bcdde893U, 0xbc175689bd2511aeU,
  0xbd0947893b31fc40U, 0x3d1d2fc23be59134U, 0xbca41ac83c801cedU, 0x3bd0d8633b4d2284U,
  0x3d2857bcbc9971a8U, 0xbcf50ee23c9eadd5U, 0x3c7e2ffcbb3b2d9bU, 0xbc469b57bd033056U,
  0xbaa2b2b83ccba35cU, 0xb9ddd86cbbbf3eccU, 0xbd02a8633d024038U, 0x3d33bcf8bc76ecf9U,
  0x3ce7e695bc7eff58U, 0x3cfe09f1bb97e3f0U, 0x3d150c383d05405aU, 0x3d135f66bcfa8df4U,
  0x3f0d7eaa3e4ee373U, 0xbc6fd4ecbebbf3faU, 0x3e5372473f03b165U, 0x3f046225bf137de6U,
  0xbefe4930be30e8b9U, 0xbd1af34cbeb2c506U, 0x3ea25dc53edd4341U, 0xbf866ef73ecadc85U,
  0xbf0b26d1befcb607U, 0xbfbda8f9bda07d22U, 0x3f0419303f272b04U, 0x3f36c3083f158e6eU,
  0x3ef81ab2bf0ed502U, 0xbeb20257bad34b0eU, 0x3f8b17da3ed3c684U, 0x3e2ca50a3f120ac9U,
  0x3f064011beaa316fU, 0xbedd11b63f301936U, 0xbe7725f63f390fffU, 0xbe3e6a933eca627bU,
  0x3cba73693de1f029U, 0xbe4c971dbb5c2c41U, 0x3f370e6c3f0b6c78U, 0x3eece4473f2df5afU,
  0xbec9347d3e064ab2U, 0x3f0a86d03f817fcaU, 0xbf1884cfbdc164c4U, 0x3d2d24253c9879f2U,
  0xbe88575fbf43c700U, 0xbe91ed073e6a86d4U, 0xbed0f8f93e5e61e9U, 0x3ef4625f3e6118b8U,
  0x3e16298f3f00ba7eU, 0x3ee6a0d13ec51ae4U, 0xbf2b67af3f364b39U, 0xbe17f8563f9cdf89U,
  0xbe1a67fa3ef93cceU, 0xbece04983f480625U, 0x3ef22a923ef16905U, 0xbe7df7b53f0b27c4U,
  0xbef2ae3cbeab3db3U, 0xbcd480783f63f604U, 0xbf11b0523f64f316U, 0xbcd0d10c3e0f0ff5U,
  0xbec13f113f14103dU, 0xbf1d7536beea17c5U, 0xbfc6da473ee2b21cU, 0xbfe27979bcc15babU,
  0xbf28bc7f3f511076U, 0x3e0ca4683fb84e5dU, 0x3fb58c83bf7182d4U, 0x3ce30c713ebb7478U,
  0x3e141dda3f13ac19U, 0x3d0d7cc6bea85efdU, 0x3dd84d0bbeb4d213U, 0x3f0ace13bf1dd50cU,
  0x3eb22d193d73c8e1U, 0xbe012fedbf000849U, 0xbf2309bb3f2660edU, 0xbed1a3623f397210U,
  0xbe6df6db3e388f65U, 0x3e6aef12beaa8f30U, 0x3e40b31c3f217e94U, 0x3ebc9d5bbe8147c4U,
  0x3f107eebbe470591U, 0xbebcc77e3f508310U, 0xbf16bcb73ea9f959U, 0x3ec6a12bbfa18171U,
  0x3f3149263e8d9f52U, 0xbf3a895fbecadef2U, 0xbe86805a3f2f4101U, 0x3db22f393f2b7ee0U,
  0xbe31a92cbeea1198U, 0x3f324286bf1e09aaU, 0xbf4bbb713ef5d34cU, 0x3f90b9d8bf0c598cU,
  0x3ebd0ce5be8123a0U, 0x3da0e1c4babede62U, 0x4005d17fbd9dd498U, 0xbefd1797beea6891U,
  0x3eca1643bea80451U, 0x3e83701fbf7c40b9U, 0xbfe922fa3fb3ef46U, 0x3cb7304abd83b473U,
  0xbe9dc3383f17c8b1U, 0x3d82c29f3d07ce63U, 0xbebbbc413e9921b3U, 0xbe6937ec3f22b899U,
  0xbee78fccbe402dc1U, 0xbe8cbe6cbf5422efU, 0x3e4ac0b63fb7ed0eU, 0xbeef28b7bf2a8b02U,
  0x3e0c4da9bf270d7aU, 0xbf0608fbbe526564U, 0xbf669222bf321913U, 0xbf043f3c3deb406fU,
  0x3d3e94643f0b6633U, 0x3e2655b4bea9e3d9U, 0x3f71681bbdae6a04U, 0x3de57ff23faf41ffU,
  0x3e9d67f4bde028a8U, 0x3f0b1279bef3716bU, 0xbd7821d53f03b044U, 0xbc353a62be6a0eaeU,
  0x3e2989a5be6b6038U, 0x3ec4f2a23e807fe2U, 0xbf5989d8bead0c99U, 0x3f957975bf4bf303U,
  0xbe8b0f05be51a1c2U, 0x3e56bc0dbe27b0bfU, 0xbf81fc123e3155c6U, 0x3f5266d3bdc83ca9U,
  0xbeae88ea3f26143dU, 0xbef29fb93e57a1b8U, 0x3f7773bc3f9b93edU, 0xbec0dc3b3c92a051U,
  0x3d8cc9be3ee8aca3U, 0x3ec52b6cbe325dc2U, 0x3f4c48143e9f4f92U, 0x3e644e533e591f83U,
  0x3eefae6cbc80be37U, 0xbe11c79cbf5f687bU, 0xbf24c9a6bfb39c8fU, 0x3ea2a5873da23306U,
  0x3e5823443d3e61e3U, 0xbee15c493ec5f289U, 0x3f0ba4b83f685616U, 0x3e98cb4bbebdbcadU,
  0x3a1bef4cbf032ca3U, 0x3e86de1b3e9aea78U, 0xbf96c66a3f3ff332U, 0x3ef3c5c53f16de12U,
  0xbe6997d43ce507c6U, 0xbf38ae173d83aa0bU, 0x3e505de83d087bc0U, 0x3f07f8dd3ee86073U,
  0x3e7ab707be024a60U, 0x3e9dedbd3e3ce163U, 0xbd7842e73ee86ee1U, 0x3dff27cd3e78ff73U,
  0x3e8ee1303fbf21e5U, 0x3f0df9b3bebd1ea1U, 0x3f480ee0bf159688U, 0x3f81b7af3f18f85bU,
  0x3f10acf73e99d85dU, 0x3f24ad59befd61d2U, 0x3f3f56e23fa4c4aeU, 0xbea68e7dbed9eaecU,
  0xbe2b9276becb1e3fU, 0x3f214242bd94d3f2U, 0xbe8230453e8164cbU, 0x3ee9d3a3bef11b70U,
  0x3f19a00c3f23c578U, 0x3c92b5403f5f8549U, 0xbf5afe743f2b303fU, 0xbf17437bbf3ead72U,
  0xbee8204ebf46dbebU, 0xbd9c76a9bed05888U, 0x3e828f933f84607bU, 0xbcee8943be909220U,
  0x3e3c08dbbec69f1fU, 0x3e4b3810bf1b5f60U, 0x3ea8140d3f5de6bdU, 0xbd9bb27abf08f8d1U,
  0x3f2f43c03f0321bbU, 0x3db6f3523e401519U, 0xbeaf81a1be7c5941U, 0xbf20d24dbea4a6f1U,
  0x3f15eb05bd8a0d55U, 0x3ecc15b03e9a7055U, 0x3eeb0b1d3e9368ffU, 0x3f888c94bf3a691aU,
  0xbd3f3929bee45415U, 0x3f1d7cb3beed08f2U, 0xbe892b0a3e4ef1fbU, 0xbf2da82ebef56850U,
  0xbe72698dbf67f8baU, 0x3e81cacb3f4958acU, 0x3fc8c9e03ee7de1cU, 0xbf51dc6a3ce0f27cU,
  0xbe9614bb3f399c5bU, 0xbc37a4223ec5b0beU, 0xbf67daa3bed50c77U, 0xbf1c5e173decf32dU,
  0x3f20758cbe5bd96fU, 0xbefbea723ed62d5eU, 0xbea32afcbfa89e0dU, 0x3e4bb0c2bdf5df84U,
  0xbeafa577becf03ddU, 0x3f0b761abd2eb507U, 0x3e66ffeebf175ae4U, 0x3eaa47743ef1c87cU,
  0xbeb2cb003d924f49U, 0xbe6779643f366335U, 0xbf8f10a23edadacdU, 0xbf377a593f3fdeafU,
  0xbf1f87533e3c9f0eU, 0x3f16bcf5bf2a9a55U, 0xbf04e8903e85fe7fU, 0xbd071559bf009708U,
  0xbea65744bef108bdU, 0xbf3f91123ef9ef44U, 0xbf31dc02be0806d4U, 0xbd5b72ca3edac0c7U,
  0xbe1c693f3f80875cU, 0x3e1ba635be94f01dU, 0xbeb557973f1a7ab0U, 0x3ee2314b3f088f79U,
  0x3f25ce353f08fe2cU, 0x3eaf5b223f933be5U, 0xbf823fa7bfa7fab9U, 0xbed890573e8a563eU,
  0xbcffeb8c3e9e593bU, 0x3f2608d43e84cd85U, 0x3eb03801bea063e8U, 0x3eef9ebb3eae0964U,
  0xbeb08e9bbec59933U, 0xbe654a473f513800U, 0x3f873dcdbf84174fU, 0x3f21e8303e9da81eU,
  0xbddc595e3fa5838bU, 0xbebe752fbe90e0f5U, 0x3eef0902bf2d1d48U, 0x3ef994c93efaec86U,
  0x3db88b44bf2013e5U, 0xbdff6d56bd947519U, 0x3f4516403e75e03eU, 0x3e2ac47b3f8d81edU,
  0xbea029233e503d08U, 0xbf39868c3ddc52b1U, 0x3ea9b310bf34904dU, 0xbf9d99c13f0e43cbU,
  0x3d084df7be9f7ca3U, 0xbdf7eb2dbe8d1b4bU, 0xbd8a848dbf6efc3fU, 0xbf85c9a7be8c917aU,
  0x3e02303c3e4c6b79U, 0xbf61afaf3da895faU, 0xbfa8e8a3be12c03aU, 0x3faa49593eb5ab13U,
  0x3f5370683e3f2582U, 0x3eab4be83f518c63U, 0x3f08a655bee0d91cU, 0x3f71de26bdfc72f2U,
  0x3cfa7038be8ff787U, 0xbe82ce50bf58f386U, 0x3f21a553beda446fU, 0x3e22f396bec2176cU,
  0x3f0eee53bdaeba9eU, 0xbedf0be8bf1a566fU, 0xbf24fb0f3ee68c71U, 0xbeb82f373f9318b8U,
  0xbd200e873e4e267dU, 0xbf26be77bce395daU, 0x3e4dbb783d391a4bU, 0x3f0674513eb10a1aU,
  0x3e308cf73c715f8fU, 0x3d8e7531be67c7e2U, 0xbe33975b3f184961U, 0x3eeb3ecb3efa44afU,
  0xbe37c2453e7270b2U, 0xbd96737cbeda3544U, 0x3b3974833f2c772aU, 0xbe77940b3edf9217U,
  0xbe4e8f2aba10ed3eU, 0x3ef19bc2bec79d4cU, 0xbf4364dcbf43d5faU, 0x3f8c333a3ebed402U,
  0x3f091fec3fba0149U, 0x3e1e94a83e5ce5d9U, 0xbf505702bf1f7723U, 0xbec13767bddd3863U,
  0xbf73b1bdbeec2851U, 0x3eaf9962bfa3fd7fU, 0xbf48c14f3f645959U, 0xbda347c9be45f313U,
  0x3ea001153f407465U, 0x3ede1b1a3f7aa444U, 0xbd2b7b09bcf1dc21U, 0x3e1d0536bec5969cU,
  0xbf110ab1bf3e523dU, 0x3d4717063f67a0e5U, 0x3fb0ec87bf9f6fb6U, 0x3f06d3e6bfa4039bU,
  0x3e1f58323e9e89f8U, 0xbe23ce9c3ea3cacaU, 0xbe0979683f7041cdU, 0x3e90a2d7bf330997U,
  0x3e6c013b3dff4ec7U, 0x3da4fbee3eaccc7fU, 0xbd27dfc5bef3dc04U, 0xbf5dc20b3fa864f9U,
  0xbe987d8abeffd046U, 0x3ee88ca5bf1de282U, 0xbf043f813f184d1fU, 0x3e9454cdbe97eef7U,
  0xbe0c27adbe9bf88cU, 0xbf963779be8ab556U, 0x3f30aa763e92d042U, 0x3f3277d1be3c9923U,
  0xbda87b933fea162eU, 0x3c444136bddc8a46U, 0x40082c7e3eee7b88U, 0x3fbefdf93d3c072cU,
  0xbeead1503f22d8c5U, 0x3c22e8c03d419f75U, 0xbf83e822bf09305aU, 0xbf811288bde50e73U,
  0xbe1dedd5be5f8a60U, 0xbcfbca9fbf3cb8feU, 0x3f050d973e8a2606U, 0x3effaac7be4c0992U,
  0xbf23efdcbf360ca6U, 0x3e9a9af7beaa8216U, 0x3f89a9ec3f3c9e1aU, 0xbf24d606bdaa775dU,
  0xbecf3a95bdc5e602U, 0xbf00eb7c3ea682d9U, 0xbf003723be9d0969U, 0x3e2d3b9b3efcc43eU,
  0xbed5487dbeb2e84eU, 0x3cd9b3123f364c6cU, 0x3f20fab33f27c85eU, 0x3f0487f1bf1caaf7U,
  0x3eca25393e8f8851U, 0x3dfd121dbe97e3b5U, 0xbf1701e7beef2c39U, 0xbe2c36c0bef26d18U,
  0xbf25d4183ef31abeU, 0x3f817f69bf098e49U, 0x3dd91270bec17449U, 0xbe9bdfdf3e2f2397U,
  0x3d4544233f7522caU, 0xbe8f94f0bf06db12U, 0xbf8135cdbeeef69aU, 0x3f93166a3eb363d4U,
  0xbf266890beb341f0U, 0xbef7a8f73e9f66c1U, 0xbf7846513e4165b7U, 0xbed21be8be04b652U,
  0xbe827dc6be9720b0U, 0x3e9fc37b3dfc7375U, 0xbca725303d9e85e2U, 0x3eb454523df50d10U,
  0xbeda4b9d3d7d1321U, 0x3dc8bd17bf0ebda9U, 0xbe399113bfb3459cU, 0xbf1f7e003f7fde05U,
  0x3ddd4b55bf908de1U, 0xbebc6e5f3e3c725fU, 0xbd95a7323f7188b5U, 0x3ebac075bf289d78U,
  0x3ea83c433eff6c1aU, 0x3de80f053e2be809U, 0x3f0ff038bf6ded51U, 0x3f14eda8bf37beb8U,
  0xbdaf68c2be0aa9a4U, 0xbf2403403cf4db53U, 0xbec202163d0391d6U, 0xbeaf657c3e946efbU,
  0x3e0621fbbe44003cU, 0x3f85c298bdb7f223U, 0x3f3e20b4bf5d966aU, 0xbe5fab2abee271c1U,
  0x3eb524f4bf448b6dU, 0xbf3ca878beb6b021U, 0x3f60bb693c789b24U, 0xbf807b59bc820b84U,
  0x3ea3b106bf0ac6b5U, 0x3e667d55bf80d059U, 0xbf535d51bfa215b4U, 0xbd89ed35be8defc9U,
  0x3ebc6c5cbc92905dU, 0xbe8cdb53bf7a2effU, 0xbe005bb83e96290bU, 0xbf1f154fbcca692dU,
  0x3f01d932bf3e06e5U, 0xbeeb20f3be36b175U, 0x3fb05e093f0838f5U, 0x3e10b5f13ecebe28U,
  0xbe53d63b3ea057abU, 0xbf2408913e5794c6U, 0xbe18232ebed164c9U, 0x3d4e306ebe69afffU,
  0x3e088f76bea43cf1U, 0x3eb9f1e0baefa2a9U, 0xbea6a2c1be8129e7U, 0x3e6b73dbbf9e594cU,
  0xbdaf7ebe3f082bb8U, 0xbd8bcca2bf3d951dU, 0x3df404053e32209fU, 0xbf7fdfcebe8be9bfU,
  0xbe5eddffbe9c59d0U, 0x3ec603efbd87cc6dU, 0xbe1dc4debf155928U, 0x3f6159d2bdde5f2cU,
  0x3f1a889b3fc68a8dU, 0x3f3a05f93ec76a67U, 0x3e835a243ecab5edU, 0x3df98a4dbf42dbc6U,
  0xbf536c0bbf77ff4dU, 0xbe8dfc20bf5e406dU, 0xbf0e4f09bebe022eU, 0x3f38f54cbec5c856U,
  0x3ebe40b4bef212cdU, 0x3f24c78a3d8f55beU, 0x3df831c7be812304U, 0x3f184bb93f294523U,
  0x3f1f614cbcfe3c6cU, 0x3e96f6543f13ef78U, 0x3ec15a5abec4ecb1U, 0x3dbf718dbe822c0aU,
  0xbec9ce1e3e9254daU, 0x3eee9352bea8dacdU, 0xbdabed2a3ee9915cU, 0x3eca9ecb3f17be29U,
  0xbda841303f141d2eU, 0x3eccd3ea3f0c48c5U, 0x3f16e8febea91c04U, 0x3f200e49bf53eb35U,
  0xbe886094bce1b324U, 0xbf3a27a53f340e90U, 0x3f1098dd3d153b22U, 0x3f6927d13f28dae8U,
  0xbf3ef21d3ed9c530U, 0x3fcc64e5bf225f69U, 0x3e15948bbd9baab5U, 0xbf3ce06b3da33fd1U,
  0x3ed5ea983f9826f9U, 0x3aa01f4e3dfc1065U, 0x3fac7b933eff25d0U, 0xbf9586f7beee9e34U,
  0x3eb71b5bbf3cdd7bU, 0x3e321bf9beb4b737U, 0xbf884d363fb5bb1bU, 0xbe60a5323ec84686U,
  0x3e8e6d363f1e5bd9U, 0x3e501950bf53b3fbU, 0x3f22f3ecbc9facf7U, 0x3f1350ab3ef7f783U,
  0xbf0b497e3db72169U, 0xbddae60fbc77b41bU, 0xbe9396d7bf816fcfU, 0x3d79ccb63f46bb17U,
  0x3f07f851bf56d62cU, 0x3f076e37be9409afU, 0xbeb6b4e0bf4acc08U, 0xbefefcc73f182b0aU,
  0xbf0935e9bef63dfdU, 0xbec49be93ec7b315U, 0xbeb61eb1befb9750U, 0x3f65c331bf68adbdU,
  0x3f04bfc8be4f55acU, 0xbe81cb43bf421435U, 0x3da7b9d0bf2c221aU, 0xbf9c03ff3c2be49dU,
  0xbe4dd7073dc1e38bU, 0x3fb3a4cb3f1548feU, 0x3d1b4c1dbf6bef61U, 0xbf6aca0f3ebcbc41U,
  0xbef8fc433fbbec8eU, 0xbdd85832bc9f0ac6U, 0x3f1c4a473df8aa20U, 0xbf29c533bf2c81faU,
  0x3efc3a0ebf0d1a71U, 0x3f1a25613f3a8adbU, 0x3f03e0c23f919b98U, 0x3e704db1be5b06cfU,
  0xbe333e453ee8b79cU, 0xbea66f27beda376eU, 0x3f2afa72bbb8678bU, 0x3f37728cbf191978U,
  0x3e1414f0bf446f55U, 0x3e46a73bbf71a426U, 0xbf6b9753bfa33002U, 0xbecea78b3fa6f4bcU,
  0x3ee72a95bf50d1fbU, 0xbf109fb23e7ab377U, 0xbf37ea903f5fe358U, 0xbf2e901abde3361fU,
  0x3e51a7d6befc75a1U, 0xbec99c05be57dc96U, 0x3eb950dfbf7350beU, 0x3f0c07d03e8a9379U,
  0xbeeb93023e827fcbU, 0x3d9cacfbbf37c481U, 0xbeb0d72f3e113729U, 0xbf308c7e3e815b58U,
  0xbd1d9251bed192afU, 0xbfa42e98be4ec815U, 0xbebfdc3bbebf6ae8U, 0xbf21b9bcbe64c2f8U,
  0x3eac21693f52e72eU, 0xbcfb88e5be63b292U, 0x3f691f31bf0caf90U, 0x3f217fc63f1a8205U,
  0xbf31099f3eaa3d13U, 0x3db303d63f999915U, 0x3f81fa85bfa50bc7U, 0xbf6c7201bed33af1U,
  0xbe67d305bd89a983U, 0x3e60965f3f537358U, 0xbe91cc1a3eef0a99U, 0x3c8bcd973da8727aU,
  0xbebed02abe79e877U, 0xbe167d0cbf5aa5b4U, 0xbf0672f3be0b981bU, 0xbf23d4473fa7266cU,
  0xbd8c9d0ebf004b37U, 0xbf288737bdd3f683U, 0xbe042b4b3f414339U, 0x3e8aa7703f0f45edU,
  0x3d533b78be8a5690U, 0xbdd67292beaeffa4U, 0xbf3049dabe501d2dU, 0xbed2d676bf71c68aU,
  0xbdbc252d3ed2dd0cU, 0x3f0f77a63f04a616U, 0xbe4728f0befbf9ccU, 0xbf4170c43e5394f2U,
  0x3df7a38e3e829435U, 0x3e8d91773eead67cU, 0xbf25d4ff3e98ec7bU, 0xbf7e0f0ebe0d4183U,
  0xbefc71cabd9b72beU, 0x3db61b18be903224U, 0x3fc997bc3f0c0e67U, 0x3f94e886be4d097aU,
  0x3e493b7f3e33bbd0U, 0x3f1bf5e2bfb64c77U, 0x3f5f794e3eef382cU, 0x3e8334843ec5dde9U,
  0xbe8fe0173e283feeU, 0xbe52eda13f307db8U, 0x3f5d7e223ed4acb0U, 0x3f4c070abef34c1cU,
  0xbf08eb1a3f136fc1U, 0xbeda6788be9a0521U, 0xbef68e29bf94cd59U, 0x3d9cac963eb740b4U,
  0xbee9afecbf70ffafU, 0x3e8902fd3dc76ef8U, 0x3eb012f33f092a4bU, 0x3f1519913e0128f6U,
  0xbf1c339f3ea64362U, 0xbe990c043d2d8256U, 0x3d946eafbf2f216bU, 0xbdbd8924be8b0a78U,
  0xbe9b5491bda90c65U, 0xbe1d51b4bebb6fc4U, 0xbeab2586bf1d6222U, 0x3f5cd6d43df7afcdU,
  0xbe7374743e0e1820U, 0xbfd863b2be9e8dbdU, 0xbf26fe943ef0d8b2U, 0x3f914cc53f422c61U,
  0x3d0a7512bf966f15U, 0x3f2684573eacfe97U, 0xbfa993fe3d64ad8aU, 0x3f3ce31dbf3d45b5U,
  0xbeda48c93e01f512U, 0x3eb45e7abf538f23U, 0xbfef2318bfd3040cU, 0x3f3cab2abeb10444U,
  0x3e9015d73e94af8aU, 0x3e9b9162bf4003d4U, 0xbf4e5903bec9a7d7U, 0x3f0abed43edce0e2U,
  0xbe95ce67bcee712fU, 0xbda388ec3f34904fU, 0xbfaa53a63daf7846U, 0x3ea90b413d853ae2U,
  0x3e95b1c63f65ddacU, 0xbeba3adebe2552e3U, 0xbf4333c73f8ead9aU, 0x3ebdbb14be8ed46cU,
  0xbdbddb053f24c306U, 0xbeaa20283f3858c4U, 0xbf80f3993f39090bU, 0xbf559a303e2ca394U,
  0x3f48531abd8bea22U, 0xbeeb24b7bf46ffc8U, 0xbe6d0a58bf012cc8U, 0xbf5379c9bed78606U,
  0x3ed019233d237294U, 0xbfd0aa62be4ea916U, 0x3f0fa6bbbe9abfb3U, 0xbe29b3513f28b903U,
  0xbf15ecb93f2d4afeU, 0xbf17c3903e2dd9f8U, 0x3fb453dfbee14fc1U, 0x3f1c7fc23e857b87U,
  0xbc4df9313f22e276U, 0xbf03ef7b3f5825e8U, 0xbf6225cf40052f2aU, 0x3f522902becee46bU,
  0xbe5b9b053f0ad3a6U, 0x3ebff497bf818e05U, 0x3d9c0225bd4c3ac1U, 0x3f0ce0333d8ba8f9U,
  0x3e898ebebc349697U, 0x3dfce258bda3b2f7U, 0x3f7ee17dbf904f5dU, 0x3efc13613f6d9247U,
  0x3e3164cb3ec898bcU, 0x3e69d677beb69c39U, 0xbf664d2a3f0e47b2U, 0xbecc41bcbe7efc67U,
  0x3e756734bebc86d0U, 0x3da7ec8fbe1019bcU, 0x3f69f4993e670ae9U, 0x3de9d329bfa46760U,
  0x3da59936bdbd4735U, 0x3e65d5cbbf576cecU, 0xbd8ce4cb3f15ead7U, 0xbfbbfdd2be1dce65U,
  0xbed0d4d23e67b612U, 0xbf9d8e3b3f804364U, 0xbf6dca693f501a82U, 0xbf6ee37e3f27a529U,
  0xbd76bd9e3f301586U, 0x3f29e76cbebbe981U, 0xbfd25511bcb5b635U, 0x3ddbdcb63f833b2cU,
  0x3ec34f06bef43024U, 0xbe9762d4bf1f994aU, 0x3f31de97bfd5aee3U, 0x3ec12e2dbe90e806U,
  0x3e3c913c3d820ef1U, 0x3f0789af3f0bb0e2U, 0xbe32c642be9b9becU, 0xbf04fb41bf0631ceU,
  0xbebbbe183aa219f8U, 0x3e8165613d6e6279U, 0xbd16d6753fa4c3b7U, 0xbe462aefbe1d4903U,
  0xbdf3e14abf7ab9e7U, 0xbf1d2b64bdd07a9cU, 0xbf58fdcbbf5b470aU, 0xbeed6208bef9840dU,
  0xbec02069bed536d5U, 0x3ec5c2663f2e07c2U, 0x3f489c2b3e266d20U, 0xbf04608c3e80c174U,
  0x3d7a254e3e7ca946U, 0x3e130035bf1f9181U, 0x3ef884a8be75c1f5U, 0xbf333009be74a858U,
  0x3ec14c2fbeab8570U, 0xbf01096f3f2bcf6cU, 0x3e5386b3bf5f6a4aU, 0x3f07587e3f194072U,
  0x3d784e7d3e8c85b5U, 0x3ed573973e59790cU, 0x3f57bbaa3f1e2ff0U, 0xbee9c4f8bea467b9U,
  0x3f0d67ee3f6726e0U, 0xbd359d013e57bdbdU, 0x3b4417713fa642c3U, 0x3f17f20f3ee389f6U,
  0xbe6c17393f11554bU, 0xbf14c1d73e022dbdU, 0xbf340f74be17e64bU, 0x3d475a8bbeb4915aU,
  0xbf0a94dabe8c1f7eU, 0xbe6210abbf122daeU, 0x3eff85673e84ab73U, 0x3e336ebb3f15cb30U,
  0xbe8adc353f43044aU, 0xbd2fb4bd3d4911f6U, 0x3e0947f23d3c4294U, 0x3ebae419bce0779dU,
  0x3ea6871dbf021258U, 0x3eae6eecbe8595a5U, 0xbe930d243e088fe7U, 0x3f01129a3cb4adcdU,
  0x3ec969613cc8b688U, 0x3e3b3323bf26cbd1U, 0xbc39fa5abee3a958U, 0xbdfcdf973eeedb80U,
  0xbf0698a4be634ebbU, 0xbea05f61be9461d4U, 0xbf76fe343f20fc66U, 0xbf893e23be58dffcU,
  0xbd65fc4c3f1e5cc4U, 0x3db8fb763e2b8161U, 0xbfb1b553be896abeU, 0x3febf6363e9b9e80U,
  0xbf3111f03f7ef609U, 0xbebfea943c72ea64U, 0xbfd4d794bfd7b3d6U, 0xbec08d093e8d0b04U,
  0x3e8bdf32bc5eddceU, 0xbdad70123f067620U, 0x3f10633ebd99cae7U, 0x3e2dbfc03e157f3dU,
  0x3f13fea5be342dbdU, 0x3dffc5783e813c40U, 0x3fa283d3bd4a39deU, 0xbe71b7c23f375741U,
  0xbed7d16fbf029893U, 0x3e16e70dbc227d39U, 0x3e3007c5bdce516cU, 0xbd8385df3f2c92e0U,
  0x3e4bfc25bf30251bU, 0x3e1e2715bf074f9bU, 0xbee1baa4bed18662U, 0xbe8911fdbf3e9ec5U,
  0x3ed9a5e6be218ddfU, 0xbc607364bedd1b5bU, 0x3e24c20c3ecff169U, 0x3f14060bbf10bf24U,
  0xbd24ad48be5a0927U, 0xbf47dd653eed2271U, 0x3f1f03913eb26bfcU, 0x3ec0b58f3bf7179fU,
  0x3e9d3bf43fb419bbU, 0x3ec7f54b3ee5f744U, 0x40129ac0bebbe7d6U, 0x3cbcba9b3f74fc33U,
  0xbef61c14bf2b56bbU, 0xbf37f5eebf354f5aU, 0xbfccb4f93f392852U, 0x3f35f9b2beb0305dU,
  0x3d9ab8f33e7c207dU, 0xbe8a5a8fbed8f178U, 0x3f3c7d74beb9820dU, 0xbf13052b3f207f65U,
  0xbf0daa3bbe704926U, 0x3f27372abf419196U, 0x3f1c5b75bfb62f8aU, 0x3da175453f5685f4U,
  0x3ea3cb823eb95288U, 0x3ecca274bec452faU, 0x3e29f2903de004bfU, 0x3e915274be424a6aU,
  0xbf1c77e2bc7267c2U, 0x3c95fc58bf37077aU, 0xbe0080063e8cb786U, 0xbdf1e9fe3e0eb448U,
  0x3e995fd03e988b70U, 0xbe332a5e3ea6e6a9U, 0xbed7cc5a3f03a898U, 0x3fa2a035be941446U,
  0x3e994b303e7ff0e0U, 0xbec1ec4b3ececd78U, 0x3f08f934be68df3fU, 0x3eabec78bec773a5U,
  0x3ecb451abf802cc0U, 0xbe081865bd8c6d45U, 0xbfeb72adbecdbfa0U, 0x3e4a7b15bde03644U,
  0xbe7599593ee6e29cU, 0x3cb22aa73e4da646U, 0xbda6d7c73f427082U, 0x3efd617dbee427a0U,
  0xbdbc028d3f054a9aU, 0xbd7bc358bf17e6f1U, 0x3ebe65a6bdd9d7f9U, 0xbf5217cabf19c29aU,
  0x3f2a5b8ebf353d54U, 0xbe9f4aa13e5346ceU, 0x3fb5d20e3f5a4746U, 0x3e82f131bf4ea7daU,
  0xbe126a7d3ed0afe0U, 0xbe58b6e2be85e0cbU, 0xbe3a6802be07de9cU, 0xbe40b9bdbd00fad0U,
  0xbedb84e8beb80320U, 0x3db05277bc6b303fU, 0x3e866a4dbf2dd661U, 0x3ed4e2e43eab4e99U,
  0x3e9c3904be8bcfe4U, 0xbf63ce9b3e99133dU, 0x3cc31cd2befae150U, 0xbf09141fbeabdd2eU,
  0xbf06fbe13c0113b6U, 0x3fb27c683f427f1eU, 0x3e10d8e73e89d40eU, 0x3f01288bbeaf0e3aU,
  0x3e94b2fcbf3e51f5U, 0xbd9348463e967121U, 0x3ffb6559be1c6b7cU, 0xbf65a3313e0bdcd1U,
  0xbf3d785cbf47f1d9U, 0xbde23ef4bebafeecU, 0xbe80f365bf80d6e1U, 0x3f63e322bea38660U,
  0x3e18182f3e8b9470U, 0xbeed5e1ebf39d9f6U, 0x3f1b9540bed33a62U, 0x3e8ca4debe3b8a5aU,
  0x3d01e7cfbec3c9daU, 0x3eb81e57be067c9fU, 0xbeba1dd43f4b066dU, 0x3ea43effbf750201U,
  0xbebbdfbb3c990f6bU, 0x3e3939e43d80940cU, 0x3e973b503e801292U, 0xbee95a273ed3ce1dU,
  0x3de1559e3d2c05e3U, 0xbcdf96073eacbdd6U, 0xbf13450cbf39d0b1U, 0x3f48c99a3f19ec3fU,
  0x3d78c7a7be5ba47eU, 0x3f4d03723f37e1f1U, 0xbe3d3aff3e8cd6acU, 0xbf4348263e919503U,
  0xbee447843ea27821U, 0x3f4607d33e8d52bdU, 0xbf363bb53f2e5de6U, 0x3f1f1e8fbe02e735U,
  0x3f0c102abfbdd5f9U, 0xbf1df4603ecf9084U, 0xc0064f17becda985U, 0x3ea3eb003efa5df9U,
  0xbec4bb543e15f24dU, 0x3e705391be095193U, 0x3eaaf3b53eeb702aU, 0xbf1c29eabe47ad8fU,
  0xbe9c9a3c3f1a3579U, 0xbe9e145cbef50accU, 0x3efa46cfbe5fabcbU, 0xbee4db013e7129b9U,
  0xbec1db4f3f1a7285U, 0x3e4d3d2f3ecae47eU, 0x3d2012923ed197a7U, 0x3dbd82d8be1d36cbU,
  0x3ec31a8dbf728557U, 0xbed2a5d3be65b76dU, 0x3f08d9103e8616acU, 0xbf3388b13f03679eU,
  0xbe7462ea3df9bb74U, 0x3ea4ddd1bede9f4dU, 0xbdf61d7fbf01741cU, 0xbf4fcd443d99b321U,
  0x3f1383c03dcba2fcU, 0x3e2fa2af3f496bb6U, 0x3f0790273ef2b18fU, 0xbf864b673eb3e31bU,
  0xbe04ca513f06e7ceU, 0xbfc25d37bec78d4bU, 0x3f5b1d783f04c1ddU, 0x3c2ae710be02cb81U,
  0xbec4e098bfd8d720U, 0x3f3245f73e5d0c26U, 0xbddf95dfbf2056e7U, 0xbe8186e8bf33b051U,
  0xbf1bf3e43e38519fU, 0xbe02d227bf1be95dU, 0x3f9a6806bfa25127U, 0xbee33ebdbca393aaU,
  0x3e1fdc97bf0c0cceU, 0x3ec0a724bd1446caU, 0xbec8a7523ebf4c4cU, 0x3e9bdd4ebf1c972aU,
  0xbee1f4c7be9a8b37U, 0xbe85d457beedfbe9U, 0xbfa7c52d3eeb2a9bU, 0x3e239915bf795d51U,
  0x3e887d613f8ab6e7U, 0xbe985f2e3eaf8c87U, 0xbe2da76bbf6acbdcU, 0x3e8d91a1be8226fdU,
  0x3edae90bbe9557b5U, 0xbecc85573e774493U, 0x3f5119563e8397f7U, 0xbeabd0eb3e86bedeU,
  0x3f169d0ebe513178U, 0xbe7d8bfbbe34565aU, 0x3e8185503eae5493U, 0x3f99af7bbd5178f4U,
  0xbf22c1ee3dddba80U, 0xbfc551bf3ed29fa5U, 0xbdd675773f25d830U, 0x3f96cc23be168d2cU,
  0x3e8dc6e7bf39b642U, 0x3d690fb1bdff02e6U, 0xc01be21fbeb051fdU, 0x3e412d43beebd647U,
  0xbf2f05383ec2e705U, 0x3f3788393f225a48U, 0x3e47cba03fa0ba2aU, 0x3f4be5e9be8314a3U,
  0xbe4460433eec2ec6U, 0xbd968cf6be34644aU, 0xbe8560af3d52a90dU, 0x3e12ed6f3ef71035U,
  0x3e221dd53e5b19c4U, 0xbe226949be7948b2U, 0x3f2bc8553ea09b5cU, 0xbddcca323e427960U,
  0xbe106aa33f2c06ceU, 0xbe7b97bb3e4b38ddU, 0xbe8f013cbf48a341U, 0x3b3b69613f10d264U,
  0xbb7154b1bd4fb35fU, 0x3e66354abe2f2ffeU, 0x3f4a42ea3f437a87U, 0x3ddea3453f3d44faU,
  0xbe1cc983befce2bcU, 0x3e8ac2963e2f74f3U, 0xbd3cec33be19971cU, 0x3f429517bef04dccU,
  0xbed2b222be94ba50U, 0xbe87cc60be833ea4U, 0xbe3824eebda4c7daU, 0xbf8f761d3d9c2a35U,
  0xbf0b47bf3f1dca9eU, 0x3eed239dbe8700cfU, 0xbf5fe3ee3e702d1fU, 0x3f175f5b3f809474U,
  0x3e2e48953f825534U, 0xbf366fe93e1551f1U, 0xbf7076b3bfb3b3d8U, 0xbed4d27dbef6cbabU,
  0xbd89d8ac3ef35ed8U, 0x3f131187bf8dc68fU, 0x3eca581bbdf4a342U, 0x3ea5c02e3f0cb1d3U,
  0xbef16b21be8237d2U, 0xbeae01e1bf6ed446U, 0xbf313ce0bf0d4eedU, 0x3e06c2f6bf0f53cbU,
  0x3e98ef58bf3bf94bU, 0xbe4d1d48bba6c4eeU, 0xbf4564b1bf832b0fU, 0x3f08d4783e826339U,
  0x3f23fd163e8c22afU, 0x3e96d15cbeee5595U, 0xbf967d543f7a32c6U, 0xbd8823f4bef33fb6U,
  0x3f3ef53bbce896b1U, 0xbe4cd6f13f1f9467U, 0xbe27691b3dedaeecU, 0xbf86ba1c3e1b3f75U,
  0xbee9bac03ec5ccf9U, 0x3cdb0c38be1d237bU, 0xbf4d6b88bf4c709cU, 0xbf63e322be65abc6U,
  0xbefa9747bda2c882U, 0x3d98c63c3e66c1dcU, 0x3fcd226d3ebdf11bU, 0x3d058370be2b49fdU,
  0xbdd05cbdbf6d53abU, 0x3d8bee35bedf3565U, 0x3e9956e4400bec8aU, 0x3e37f99b3e697d4cU,
  0x3e7f27253f4eb08aU, 0xbf0f681dbf55bcf6U, 0x3ef419d33eac5e2cU, 0xbf3270003ee73a32U,
  0x3e4658323ee2e01aU, 0x3e6199e43f3278abU, 0xbf0a1b43bf630b94U, 0x3e800b7f3dc5a179U,
  0xbe689bf5bf5a0c50U, 0xbce16b18bc96b132U, 0x3e154a053f274506U, 0x3e68cfc8be26768bU,
  0x3d039909bee9bff5U, 0xbecfbd8bbf19cec3U, 0xbc9dda43bf142d78U, 0xbe8254fd3f12c588U,
  0x3f0a55d0bed4bf36U, 0xbf0799443eeb9f9aU, 0xbdac78463e073fccU, 0xbf8bde913e307681U,
  0xbd85d22c3e93fe89U, 0x3f9a3d193e94875dU, 0xbf3f8313bdd49651U, 0x3f273bb43e077d03U,
  0xbea73e333fea298eU, 0xbf4dff993eab2879U, 0x3ef8f55f3e2d273bU, 0xbdb29f80bd1ff1d4U,
  0x3f5fa04b3efb823dU, 0xbf54dc3cbe973532U, 0xbfac62994008036bU, 0xbdabc87e3c0eab7dU,
  0x3ddffb6b3e1299d3U, 0x3e7a0c3b3f8369b4U, 0x3efbe485be2f89acU, 0x3dfd18653f0faa86U,
  0xbf23bef53ec6965aU, 0x3f18fe3ebe78300dU, 0x3da87f4e3d05da1dU, 0xbe9e5f53bf3af658U,
  0x3ed38d873f816d99U, 0x3e535f4c3e9684a9U, 0xbec50182bee8a71dU, 0xbef06d173eb2cbeeU,
  0x3ea62ca93efca5a8U, 0x3e6aa52dbec7b3c8U, 0xbedc1dd0bf0239abU, 0xbd0582ca3fb7d1baU,
  0x3e21c9303e369449U, 0xbf2ba8693f076cd9U, 0xbc1fad91be64f935U, 0x3f5e75593f04baacU,
  0x3e2484ffbe8a5624U, 0x3da544893f578d43U, 0x3d59e9e03ecced03U, 0x3f3f00813ed92aa4U,
  0x3ee7d23f3f9f0310U, 0xbe934b63bdac9280U, 0x3f9439b0bea96be1U, 0xbf9f7397bf74cb50U,
  0xbf22f3f93f6c99e8U, 0x3ecda6b43f8ffbcbU, 0xbf0eb5f83ffb3e9aU, 0xbf59b771be04ad61U,
  0x3e4f789abf36676dU, 0xbf271c293f71a513U, 0xbf659cf93ea2b436U, 0x3f231515bf21b17bU,
  0xbe534a543eea1728U, 0xbee04f703f092b48U, 0xbf04d0313f6965c1U, 0xbef0c3d23ebfe5ffU,
  0xbe6231a4bf70b965U, 0x3eea34db3d38b4f6U, 0xbf48d939bf3b5e0cU, 0x3e8110b6bef261dbU,
  0xbfa81cd4bfbd7660U, 0xbfa9ed1c3fa70b74U, 0x3d065436bfa2dfaeU, 0x3f38e285bf887407U,
  0x3f9f96cebf6ab127U, 0x3fceac0e3fbdb211U, 0xbfc63867bfac1343U, 0x3fd088f23f992628U,
  0x3f21d4efbebfcabfU, 0x3fd7175f3e403b5dU, 0x3ecdd404bf9b7470U, 0x3f3ae949be89cafbU,
  0xbf4d958d3e23db38U, 0xbf214ff93f2b40d0U, 0xbe717ed73f7c7441U, 0x3d817d44bedfec09U,
  0xbea6ec833ecbcb69U, 0x3c5a88f5bde78f5bU, 0xbe47e1133eb44330U, 0xbe8b464ebf0005d4U,
  0x3eb3076bbe86482aU, 0x3ec7b5403f5b0f5fU, 0xbe41bb9abf0687b7U, 0xbe0479f0be4fb20bU,
  0x3f10804f3d914c07U, 0xbe5a4a3ebe0089f2U, 0xbe057a93bf0269d5U, 0x3e5bc3833e1c5d71U,
  0xbe3f200bbf0ef407U, 0x3e16d77f3ea7e0c5U, 0x3d9877bd3ef7c519U, 0xbe8536493dcddb83U,
  0xbdc2716c3e945328U, 0xbf650c613dc0c0afU, 0xbeb8ca9cbda73b42U, 0xbe26ef03bf7669b4U,
  0x3d808e6abdd36c5dU, 0x3ef164013f06133aU, 0x3b2511043f0b4596U, 0x3da116553eb92ddbU,
  0x3f088149bd8d9d18U, 0xbe830d62bdecdbdbU, 0xbe5302acbf2bca40U, 0x3df6c97c3eb60233U,
  0xbf1330e7bdf0047dU, 0xbea51dcebe880e94U, 0x3e50c98bbe6e1580U, 0x3e0e35973eacc1c5U,
  0xbda24b41bcaad889U, 0x3f647c8b3e4b95daU, 0x3c0322a13c8fc560U, 0xbe99142e3f799f26U,
  0xbe83a42dbcf187ddU, 0xbf20299e3ee1a77bU, 0x3e9190dc3f3f6435U, 0xbe5fb12ebe25f39aU,
  0x3ee6be48bef4e02eU, 0xbeb8c685be368cabU, 0x3eb4e87f3e33b711U, 0x3ef6a7553e735f7cU,
  0xbf1668f33ab68d71U, 0x3ea82e953eb5adecU, 0xbd4bae993ec4749aU, 0xbe25afd4be62d726U,
  0xbe4555ce3e303400U, 0x3dd45499be08024aU, 0xbebe8e4a3e9d86bdU, 0x3b3a4d80bf31e34aU,
  0x3cedffbfbe79a522U, 0x3d471d11bf0addf9U, 0xbd299e873f44f9c5U, 0x3e3f62633ee9004fU,
  0xbe1b9f9bbe777a4eU, 0x3e8208c9bde9b671U, 0xbcc5e89e3ed85a42U, 0x3e25c47fbea385bbU,
  0x3f085d0cbd8c096dU, 0x3e5da22abe8284e2U, 0x3e4fafe0be80e701U, 0x3d113032be8d61b5U,
  0x3deeb35ebe7f29eaU, 0xbf8477a5bde9c3b7U, 0xbe845b0abe21d225U, 0x3d90f009be053a32U,
  0xbe55aef8be28131dU, 0x3ef9a3bf3ef6744eU, 0xbd910a8bbf1e8a76U, 0x3e9b7658be6178faU,
  0xbec13e743e718380U, 0xbe9da6b2be4e2f10U, 0x3dece3a7beba6615U, 0xbef63dc53d5df53dU,
  0x3ea0b3f03f0950c6U, 0xbe525aca3dccfefcU, 0xbe9046b33e836cbbU, 0x3e57dadb3e133355U,
  0xbe899a76bef6f9dfU, 0xbec8a67fbecc8b19U, 0xbe17cf533e3474a9U, 0xbe7fc1eb3f195447U,
  0xbe81f7353d2ad793U, 0x3bd75a80bf450ba9U, 0x3e7f4cad3d007446U, 0x3e007b713e0f800dU,
  0xbe04eddfbec960c9U, 0xbe8d00aabe028f7bU, 0x3edf7c513e9403e2U, 0x3e83468e3e7ff5fbU,
  0x3dc72dc8be7785ccU, 0xbeb193923e46dfabU, 0xbe97975b3dc5d9d4U, 0xbdaa54da3e2a06a8U,
  0x3e55e4d63d94400fU, 0xbe0bb849bcfd2259U, 0x3e55c1a9becbf727U, 0xbe80d6c8be902146U,
  0x3ea8cac43d3a61d2U, 0xbf170d953ed5bdd3U, 0xbdbf5552bdb8e7a8U, 0xbe8ff7973e1c7ec6U,
  0x3f0a6dccbece8a27U, 0x3e49b3f43e9427c2U, 0xbe1efa12bf1afef4U, 0x3e73022a3e8ebadcU,
  0xbf0063e33d256fecU, 0x3e977bf03d7fa57cU, 0xbe3acb923e811a3aU, 0x3e1f230e3e583df6U,
  0x3ea44209bee82678U, 0xbf39f3433e457adfU, 0x3f122126bed1916dU, 0x3e9e6e013eccc32cU,
  0x3e79a25cbe834c2eU, 0x3f0a1d9b3c6a8db5U, 0xbdc00a543ec6f41fU, 0xbe4bf4a23f07d54cU,
  0x3e856ee23e2fabf8U, 0x3d4857b63e0cff97U, 0xbeb91fa6bf06b1abU, 0x3ef8949fbe81dbf6U,
  0xbe1490713d896c8bU, 0xbc41f649be8b8befU, 0x3e5522d3bebac2d8U, 0x3e22f033bde6740aU,
  0xbe6b3f2dbec0a9bdU, 0xbf28c9efbd6dd594U, 0x3e06f72b3f161f40U, 0x3e87ad1e3f60db83U,
  0xbead80bebe8190d7U, 0x3ecefee4bef91079U, 0xbde7e7d73ea15318U, 0xbd90ca733a820fb1U,
  0xbed0c6153e9e682aU, 0xbebc5b4f3dbe568cU, 0x3d3023bc3f5a784fU, 0x3d8902f0be2ab631U,
  0xbf243bb6be712729U, 0xbeb80513be48141aU, 0xbed8b38abe6dcd19U, 0xbe0c95e33e628c72U,
  0x3d061e243e1079a8U, 0x3ec4c8883e8b313dU, 0xbd32dff3be8029d4U, 0x3e7147b9bc9331e4U,
  0xbe2be9c73e267305U, 0x3f1e9e113e8884b3U, 0xbe284a103e2b7712U, 0xbd474a57bef5ef23U,
  0x3ce90386beb98e37U, 0xbebe11c7bdcaf891U, 0x3e3f57ae3f5c1cc1U, 0xbf0fe71abe93819bU,
  0x3e6fdb4a3e134a55U, 0x3da35d79be7acc62U, 0x3e8def693e5a9c7fU, 0x3c0f2cf3be87e68dU,
  0x3e5677343e0b5237U, 0xbed0a014bca18510U, 0xbb9fdf6fbf0e1aeaU, 0x3e390095bb2bf0c3U,
  0x3e21e1613ea41e42U, 0xbe806e87bee29c84U, 0xbc225fe73ec5bec8U, 0xbe3f678f3e96e71eU,
  0x3ec87d6bbe30d264U, 0xbe3930653e099239U, 0xbebb614ebf2707e2U, 0x3ece2cdd3e109867U,
  0xbe375f29bdfb2354U, 0xbeda1541bda7ed87U, 0x3ede23573d020526U, 0x3da31e493ce0cf58U,
  0x3e4211163ed83a48U, 0x3db6e7323e1e9f5dU, 0x3d22a79b3ec81d32U, 0x3d25786c3f72f9d3U,
  0xbd274fa8be944fbfU, 0xbe2bce973f0e4c19U, 0x3de913ef3e514d0aU, 0x3e1b8d46be8fcd70U,
  0x3efbd6e83e571ce2U, 0xbd29d614be5c96a9U, 0xbebfec6a3e0c0ab7U, 0x3eed0920bd94629eU,
  0xbe59a8d83ef8e467U, 0xbefc42973d97040dU, 0x3d0028b2be2bd652U, 0x3cb78a083b8b16c5U,
  0x3e7272d6be8020e9U, 0x3eda2ee4be4362e2U, 0x3e0f52a83eaad52fU, 0xbca1f4f3be0f19fbU,
  0x3e90021c3e1bb944U, 0x3f125f7d3e5916d4U, 0xbbcada2bbf18bfdcU, 0x3eb8d24d3e8786b8U,
  0x3efbbd253ed8753eU, 0xbeae9d68bd34052aU, 0xbdce4df43f2b8a48U, 0xbeeed034be833054U,
  0x3cd52e93be52c683U, 0xbdc5b1b93bb38d85U, 0xbec7b7debea67a67U, 0x3e651830be852510U,
  0xbe34254e3e8df0c7U, 0xbf067c5cbe05abedU, 0x3eb204ffbe186527U, 0x3db18be23e3d08a4U,
  0xbe2da97cbdc6fe41U, 0xbe9d16f23eb69822U, 0xbe2a1f5a3e817e07U, 0xbecb7b9e3de2ace7U,
  0x3e2d0aa93e9698adU, 0xbd757641bd2846b9U, 0xbe46e4e13ca69a80U, 0xbd02c1743e91fed4U,
  0xbe19a704be085df7U, 0x3d23e24fbdcea184U, 0x3ec8bfebbea87ac1U, 0x3e4756b2be3b76ebU,
  0x3e91bdc6be1b31b6U, 0xbed5d9eebeecda2aU, 0x3dcfe745bea4c4eeU, 0x3dc3abdb3d9a4d15U,
  0xbeb1ddbcbd50bad7U, 0x3e8a662dbed4deb2U, 0xbe04e6453ea6ee23U, 0xbec79f18bec9e548U,
  0xbf1884333e8ca0faU, 0xbe2fd4163b4dd738U, 0xbe8e41bb3e96a446U, 0xbea912e13ed33649U,
  0xbf01a33b3e0db97aU, 0x3d8b4f1c3eb25c0aU, 0xbe4a8cfb3d24211bU, 0xbd944304bde2fbc9U,
  0xbe9ae99f3d8effd2U, 0x3e9b9841bdbfca90U, 0xbf084f62bde0f644U, 0x3de49705be92c534U,
  0x3dcd4a51be048183U, 0xbe4dde803f0dbfb2U, 0x3d582511bdd07675U, 0xbe77be9f3edb4800U,
  0x3e73cfcd3e4b8bf9U, 0x3e83ce99bdaf51c5U, 0x3e574f50bf34fabeU, 0x3d3fb4d5be48df58U,
  0xbe7b45393dd6caf4U, 0xbe347150beb7ecdfU, 0xbe3c507b3ef2fac7U, 0xbc9164263db2438cU,
  0x3e87f33b3ec38a39U, 0xbf2d7f563ea3e9acU, 0xbe2cdc7c3f0c4156U, 0xbe45b2683f2d6bdaU,
  0xbe92a7fabce06e55U, 0x3eff18b03d024eb6U, 0x3e51e0513e92f038U, 0x3e87146abe86319fU,
  0x3ec992b4be568532U, 0xbed1837c3b02616bU, 0x3e752e303ed703bdU, 0xbf23f428be5f7cd7U,
  0x3df9af643f008d91U, 0x3e857ace3e20f845U, 0xbe1f60a83e268a0cU, 0xbe5f86cdbebd4508U,
  0x3d6ab63abef9cf71U, 0xbf0307bb3ddbbddcU, 0x3e3840c93eb8e452U, 0xbd25b559bf5ae344U,
  0x3ebd3851bd795d8eU, 0x3e9db564be7c1bf0U, 0xbe1413513eb89b98U, 0x3ebc72a4bef30940U,
  0xbec878173de74f44U, 0xbed970ad3e600436U, 0x3ec513a9bf31dd8bU, 0x3d130112be8f3838U,
  0x3e4932e83e028f89U, 0xbe85eaa1be295b47U, 0x3e1e01d5be397a17U, 0x3dce8e293c4ff90dU,
  0x3eb1cc8bbe3edb6cU, 0x3e811b8cbdfffc3eU, 0xbcdc1b9ebd7ec15fU, 0xbeb0d7d0bececb42U,
  0xbd380a7d3e235f52U, 0x3d15c2ebbf42541dU, 0xbe560dbb3ea6e760U, 0xbec11f97bf13dc88U,
  0x3f03e122be9da0dfU, 0xbeada227bd19a191U, 0x3e85e0263ef73327U, 0xbf06e48f3e39f954U,
  0x3efac0edbe7cbe4bU, 0xbee37b323e8ba08dU, 0xbe746043be0673a4U, 0x3e4057283d964113U,
  0xbe97680b3e8b6ed9U, 0xbcffd8d3beb8a096U, 0x3e1c40f4be58126bU, 0xbe97da4dbf7f99b3U,
  0xbe38c5623e0404c8U, 0x3e1abc603e06bc8bU, 0xbe3d24bebed12f72U, 0x3e91f2c2bef04e21U,
  0x3e9dddae3ed14956U, 0xbe6799b2bd9d0b22U, 0xbeb13286bddaa45cU, 0xbd71c7e23e1d12a8U,
  0x3eea9d9f3d60842cU, 0x3ea389cf3e953a06U, 0x3eda12723ed96ac0U, 0x3d54bcb93e356613U,
  0xbea679ab3ea8d803U, 0x3f7ce2ca3e6d7021U, 0xbec6aa783efb3c41U, 0x3e9e38a2bf0ce4bfU,
  0xbd9e140fbe3d9e5bU, 0xbeb4a670be4c0b22U, 0xbbbda186bef77afbU, 0xbe98fa9e3d735b3dU,
  0x3c5f34133e5d81a4U, 0xbcf7e618bd45e4cfU, 0xbe1fa92fbf0dbe67U, 0xbd8ad9d43db9c4e5U,
  0xbd238dee3c90145bU, 0xbe0177c2be9fa119U, 0xbe01bf74be5cb2a2U, 0x3d15af503d7a8047U,
  0xbd2992233efe6593U, 0xbeda480a3e905333U, 0xbeab6714bf01c684U, 0x3e288b8bbf51932fU,
  0xbeb4f5cfbe988262U, 0x3dcefc26bf302d13U, 0xbcb678ddbebd08ddU, 0x3d5c9ecabec0cdefU,
  0x3dd4532b3e8b5b10U, 0xbe7d76dfbd2bdf2fU, 0x3df42c3e3e37b4bcU, 0x3c46a193be84c536U,
  0xbe322bdf3e794984U, 0xbec6436ebea85f80U, 0x3ed4f66a3ebe45adU, 0xbb6711f9be551388U,
  0x3e28e38dbdfb0c5aU, 0xbc9e97fb3eca5bbcU, 0x3ef298463ee3f521U, 0x3df41c933ef5eaebU,
  0xbe62c1233e0995fbU, 0xbf0f1213befe8b03U, 0xbd4f3c103f5227cdU, 0x3e221de2be91e87cU,
  0x3e8dc3f03ead1645U, 0x3e2fd96d3c5d6359U, 0xbe04821c3f19869eU, 0xbc17d2193d84fae5U,
  0x3eac357dbe93c64bU, 0x3e613accbe98f4ffU, 0x3ea161583e91ed86U, 0xbe40508f3bd49dffU,
  0xbd22eee2be9c8b20U, 0x3eda81223e4b5913U, 0xbd822bc43ee9266aU, 0x3e339e68bf5d635cU,
  0xbea2ddbfbe36df16U, 0x3c089ac7bed32481U, 0xbd733bcfbe904032U, 0x3e3dc061be939dd0U,
  0x3eeab9cd3ea498e5U, 0xbdba373cbe3e61cdU, 0x3e42244c3f74d348U, 0x3ed6262fbecbb6fbU,
  0xbec74b28be8cc815U, 0xbdc80fa43e9f3c85U, 0xbeab754bbeabe614U, 0x3db404593c89f8ffU,
  0x3e0dcbc7be7bea28U, 0x3f4ba5663e585e22U, 0xbe4640e53efdf631U, 0xbdb703f5bf4f3350U,
  0xbe8154b93d789f65U, 0x3e172631bce0f730U, 0x3e92a8403edb90afU, 0x3c9d84a7beec7b47U,
  0x3e87e5fe3ebc70a5U, 0xbed4d8a3be815b41U, 0x3e860deb3e9db9e8U, 0xbe84b90c3b0d1a24U,
  0xbe806db53edc4844U, 0x3d237e323ec00743U, 0x3bb71565bce7d382U, 0x3e03a9edbe28d9a0U,
  0x3b99bd533d07fefaU, 0x3edd55053e76d73dU, 0x3e81b788bdaf4a63U, 0x3e9732b83f030f47U,
  0x3dfc6069be851151U, 0xbf256205be3e62caU, 0x3d30857f3eef6790U, 0x3d2cd7ac3eeae490U,
  0x3f173705bea1832aU, 0xbebad0de3db029ccU, 0xbee7f38fbf479b5aU, 0xbf0d99a73ede390dU,
  0x3d45d9443ea4e80aU, 0xbb3b47e23e9b900bU, 0xbe1fbc1e3e15e201U, 0x3e11b8b0be9b7e3aU,
  0x3e8eb849be889ce5U, 0xbe39edc3be93e657U, 0xbe8c6817be1294b6U, 0x3d35789abecca12fU,
  0xbdb34e08bd35d341U, 0xbe3056463f2b5a3bU, 0x3d8230633eff7d99U, 0x3e9a9f633eab1bdaU,
  0xbe36229e3dd9aefaU, 0xbe18cff13e630773U, 0xbe65d634be03c1bfU, 0x3e71b8763db52ef4U,
  0xbdee6bb03e5376ffU, 0xbe84e37bbd050793U, 0x3dbc81e5bda0d53aU, 0x3c9c8784bd05761eU,
  0xbd9b60613e547b0bU, 0x3f0e31b3bcca4c60U, 0xbed3b0bcbdbded68U, 0xbca9f9393f40bf80U,
  0xbd822e553be459c8U, 0x3e994798bdaf45c6U, 0x3e8e612dbdd2ad03U, 0x3e65825e3f09f050U,
  0xbeebc64dbe6de8cbU, 0xbe8279e93d0b0295U, 0xbe3f04eabf43b07cU, 0x3e872abdbeb0e95fU,
  0x3e1f53d1bdfd6a23U, 0xbed60f3ebecb39c2U, 0x3dcb88cb3ee33291U, 0xbce55acb3e96ed98U,
  0xbd8342be3d9909e9U, 0x3f200c25bd692f15U, 0xbf001bfcbf16e969U, 0x3d77274ebe408b7fU,
  0xbe509d00be869dabU, 0x3f15b24abeba284bU, 0xbea166723f1d3237U, 0x3c83e405bf078142U,
  0xbe55196f3eb92cc5U, 0xbd1329fc3e967df3U, 0x3e84fcc33dbfdc0fU, 0xbedbab8b3e6bdd49U,
  0x3ebdd9443ef205baU, 0xbe974138be21c492U, 0x3e3a114c3d0f2979U, 0x3ccc10853dd3e0f8U,
  0x3e0c132f3d0df0f7U, 0x3f306db0be8cb284U, 0x3ea368d03e3a8515U, 0x3e746dad3dc91e07U,
  0x3e7500cfbe118349U, 0x3db09eaa3d8d7416U, 0x3d6d4201bef7ad60U, 0xbe03143d3f132f31U,
  0xbd9d3eb83c85365cU, 0x3e827d1dbc9f67faU, 0xbec93c1d3bc185edU, 0x3ee6bc893dda04a0U,
  0x3f36387abd14b013U, 0xbdb58b74be92979fU, 0xbe8443e5be4ce078U, 0xbd7fccb03e250852U,
  0xbdbd4d28bec2ae5eU, 0xbe842a6b3e08e3eeU, 0x3ed6e527beb07f76U, 0xbe4f3276be4fb454U,
  0xbe00f6233d9a8b5cU, 0x3ddcb8bb3f0ba478U, 0xbeb36de13f334612U, 0x3a0d36debf11e74eU,
  0x3f34a936bea7ff69U, 0x3e8a3c7a3e3ac59bU, 0xbeeb2df53dd41cc3U, 0x3ee3f4733ed5183eU,
  0x3e644341bedf5bcaU, 0xbedcab51be8e3cc1U, 0x3d62b7193e513ef6U, 0x3c873bcbbe9d913dU,
  0xbed1d6ab3e82012eU, 0xbe236cebbec6841aU, 0xbea5899a3ef2dd87U, 0x3e789b483f356a98U,
  0x3cffeaba3ea7c70aU, 0xbe4424d1bee0cd33U, 0xbe11006dbe1bdd64U, 0x3ef6da173ef5aaa5U,
  0xbe18fb02be2da71fU, 0xbeada0c4bdef5c86U, 0x3e7e143bbef69e19U, 0x3e6ddb94bd98c908U,
  0x3d5d73983dd0421dU, 0xbe0f5f913c30971dU, 0x3c318bd6be437aedU, 0x3e2f6288be819617U,
  0x3f0a820a3e380221U, 0xbd5eeddfbed970f7U, 0x3f3e5c653ef43f15U, 0xbe0880c03deef06bU,
  0xbe9be6ab3f89dfa5U, 0xbf44270a3e1bff10U, 0x3ea56453bf1c82d3U, 0x3e3bd32f3fb2ecb3U,
  0x3ec33e93bf14d1beU, 0xbdaf7e443f5de067U, 0x3f9536213f13598aU, 0x3f0494dfbf8bc48fU,
  0xbef03c78bf0226cdU, 0xbe9ec596bd518b97U, 0xbf4cdf4a3c38b410U, 0xbeafa5be3f08946dU,
  0x3f400ab93f393ad3U, 0xbf84d0d1bef47531U, 0x3f460bd53f48fe6aU, 0x3f319c313f15ddecU,
  0xbf968f74bee23e82U, 0xbe88f980bf0154a4U, 0xbf4d3eb1be8196e1U, 0xbed43b60bedc1116U,
  0x3efe6f7ebe3206d8U, 0x3e81fdf7be4b35eeU, 0xbef30884bede7526U, 0x3ee00ee3bf01d319U,
  0xbe1f8ac13ed994a7U, 0xbf1e0ff33f7b9a0fU, 0xbf05e0113ec4722eU, 0x3f49869bbed5f86bU,
  0xbf7f38bbbd0bf4a1U, 0x3e90074c3d144757U, 0xbf2badb7bf453603U, 0xbf198c433f30b918U,
  0xbef6667e3e873b34U, 0xbea1f8623ec97403U, 0xbeb36bce3ec4b0a9U, 0xbea5784bbf4c5ba0U,
  0xbe4565003db404afU, 0xbf20e0883e0a09a1U, 0x3c7a96a33f733cd4U, 0x3f38c5113e06fe82U,
  0xbe5209733e09c59eU, 0xbe1a021bbf94d31fU, 0xbec4c785bed1541eU, 0xbe910cf1be9fe26dU,
  0xbf808c793eda7022U, 0x3f7f53d0bee27d05U, 0x3f3fd0fd3dc179cfU, 0x3df236eebea8c716U,
  0xbd6b6d00be7b70ffU, 0xbf5763c13e86ebddU, 0xbf4c48b7be8d780aU, 0x3e367b28becfea15U,
  0xbe6286453e9211b8U, 0xbdd16b8cbcbe24f8U, 0x3db521c53f306d9dU, 0xbef44fc6beb9fdf2U,
  0xbf01e12bbcf29e34U, 0x3e1b8a4bbcd68ecbU, 0x3f15d0b9be1634d4U, 0x3ed2ea72bf1fcfe7U,
  0xbe519a1e3d9785e2U, 0xbe7aad75be2509feU, 0xbf4d30503f0edc68U, 0xbe3abe243ea50723U,
  0xbf187d60beb7d10bU, 0xbd84fad23f5ff475U, 0x3f55bccfbf2c364aU, 0x3dda92833f114a1dU,
  0x3c5016753d20e45bU, 0x3f0159063e8c1e18U, 0x3df764293f52fb91U, 0x3dbd33133ec2535bU,
  0x3e1763ccbbbd47a6U, 0x3c7f0dad3e89bfdeU, 0xbed0a9f73e2f7a23U, 0xbf2b1316bea9bcc0U,
  0x3e19e5a0be3dde0cU, 0x3f05723f3ebc09ecU, 0x3f81016f3cc5a7cfU, 0x3df120c3bd63ab95U,
  0xbf8c3fe6bd92c3bcU, 0x3f21ec2cbe905327U, 0x3f3bc380bee4f297U, 0x3db779613e50a799U,
  0x3de162fc3ea975bdU, 0xbf19c7c23e0df464U, 0xbef40fc83e837b8aU, 0xbf2199c73f0a32f2U,
  0x3ee5bd1d3e840f47U, 0xbeebb5bebe106d78U, 0xbe852f90bebd9932U, 0x3e1fa0ba3e035a21U,
  0x3fc8bbd63f91cacbU, 0xbf35fb863f9a65d6U, 0xbf4f50e0U,
};


ai_handle g_machine_failures_weights_table[1 + 2] = {
  AI_HANDLE_PTR(AI_MAGIC_MARKER),
  AI_HANDLE_PTR(s_machine_failures_weights_array_u64),
  AI_HANDLE_PTR(AI_MAGIC_MARKER),
};

